{
  "\u0100": 0,
  "\u0101": 1,
  "\u0102": 2,
  "\u0103": 3,
  "\u0104": 4,
  "\u0105": 5,
  "\u0106": 6,
  "\u0107": 7,
  "\u0108": 8,
  "\u0109": 9,
  "\u010a": 10,
  "\u010b": 11,
  "\u010c": 12,
  "\u010d": 13,
  "\u010e": 14,
  "\u010f": 15,
  "\u0110": 16,
  "\u0111": 17,
  "\u0112": 18,
  "\u0113": 19,
  "\u0114": 20,
  "\u0115": 21,
  "\u0116": 22,
  "\u0117": 23,
  "\u0118": 24,
  "\u0119": 25,
  "\u011a": 26,
  "\u011b": 27,
  "\u011c": 28,
  "\u011d": 29,
  "\u011e": 30,
  "\u011f": 31,
  "\u0120": 32,
  "!": 33,
  "\"": 34,
  "#": 35,
  "$": 36,
  "%": 37,
  "&": 38,
  "'": 39,
  "(": 40,
  ")": 41,
  "*": 42,
  "+": 43,
  ",": 44,
  "-": 45,
  ".": 46,
  "/": 47,
  "0": 48,
  "1": 49,
  "2": 50,
  "3": 51,
  "4": 52,
  "5": 53,
  "6": 54,
  "7": 55,
  "8": 56,
  "9": 57,
  ":": 58,
  ";": 59,
  "<": 60,
  "=": 61,
  ">": 62,
  "?": 63,
  "@": 64,
  "A": 65,
  "B": 66,
  "C": 67,
  "D": 68,
  "E": 69,
  "F": 70,
  "G": 71,
  "H": 72,
  "I": 73,
  "J": 74,
  "K": 75,
  "L": 76,
  "M": 77,
  "N": 78,
  "O": 79,
  "P": 80,
  "Q": 81,
  "R": 82,
  "S": 83,
  "T": 84,
  "U": 85,
  "V": 86,
  "W": 87,
  "X": 88,
  "Y": 89,
  "Z": 90,
  "[": 91,
  "\\": 92,
  "]": 93,
  "^": 94,
  "_": 95,
  "`": 96,
  "a": 97,
  "b": 98,
  "c": 99,
  "d": 100,
  "e": 101,
  "f": 102,
  "g": 103,
  "h": 104,
  "i": 105,
  "j": 106,
  "k": 107,
  "l": 108,
  "m": 109,
  "n": 110,
  "o": 111,
  "p": 112,
  "q": 113,
  "r": 114,
  "s": 115,
  "t": 116,
  "u": 117,
  "v": 118,
  "w": 119,
  "x": 120,
  "y": 121,
  "z": 122,
  "{": 123,
  "|": 124,
  "}": 125,
  "~": 126,
  "\u0121": 127,
  "\u0122": 128,
  "\u0123": 129,
  "\u0124": 130,
  "\u0125": 131,
  "\u0126": 132,
  "\u0127": 133,
  "\u0128": 134,
  "\u0129": 135,
  "\u012a": 136,
  "\u012b": 137,
  "\u012c": 138,
  "\u012d": 139,
  "\u012e": 140,
  "\u012f": 141,
  "\u0130": 142,
  "\u0131": 143,
  "\u0132": 144,
  "\u0133": 145,
  "\u0134": 146,
  "\u0135": 147,
  "\u0136": 148,
  "\u0137": 149,
  "\u0138": 150,
  "\u0139": 151,
  "\u013a": 152,
  "\u013b": 153,
  "\u013c": 154,
  "\u013d": 155,
  "\u013e": 156,
  "\u013f": 157,
  "\u0140": 158,
  "\u0141": 159,
  "\u0142": 160,
  "\u00a1": 161,
  "\u00a2": 162,
  "\u00a3": 163,
  "\u00a4": 164,
  "\u00a5": 165,
  "\u00a6": 166,
  "\u00a7": 167,
  "\u00a8": 168,
  "\u00a9": 169,
  "\u00aa": 170,
  "\u00ab": 171,
  "\u00ac": 172,
  "\u0143": 173,
  "\u00ae": 174,
  "\u00af": 175,
  "\u00b0": 176,
  "\u00b1": 177,
  "\u00b2": 178,
  "\u00b3": 179,
  "\u00b4": 180,
  "\u00b5": 181,
  "\u00b6": 182,
  "\u00b7": 183,
  "\u00b8": 184,
  "\u00b9": 185,
  "\u00ba": 186,
  "\u00bb": 187,
  "\u00bc": 188,
  "\u00bd": 189,
  "\u00be": 190,
  "\u00bf": 191,
  "\u00c0": 192,
  "\u00c1": 193,
  "\u00c2": 194,
  "\u00c3": 195,
  "\u00c4": 196,
  "\u00c5": 197,
  "\u00c6": 198,
  "\u00c7": 199,
  "\u00c8": 200,
  "\u00c9": 201,
  "\u00ca": 202,
  "\u00cb": 203,
  "\u00cc": 204,
  "\u00cd": 205,
  "\u00ce": 206,
  "\u00cf": 207,
  "\u00d0": 208,
  "\u00d1": 209,
  "\u00d2": 210,
  "\u00d3": 211,
  "\u00d4": 212,
  "\u00d5": 213,
  "\u00d6": 214,
  "\u00d7": 215,
  "\u00d8": 216,
  "\u00d9": 217,
  "\u00da": 218,
  "\u00db": 219,
  "\u00dc": 220,
  "\u00dd": 221,
  "\u00de": 222,
  "\u00df": 223,
  "\u00e0": 224,
  "\u00e1": 225,
  "\u00e2": 226,
  "\u00e3": 227,
  "\u00e4": 228,
  "\u00e5": 229,
  "\u00e6": 230,
  "\u00e7": 231,
  "\u00e8": 232,
  "\u00e9": 233,
  "\u00ea": 234,
  "\u00eb": 235,
  "\u00ec": 236,
  "\u00ed": 237,
  "\u00ee": 238,
  "\u00ef": 239,
  "\u00f0": 240,
  "\u00f1": 241,
  "\u00f2": 242,
  "\u00f3": 243,
  "\u00f4": 244,
  "\u00f5": 245,
  "\u00f6": 246,
  "\u00f7": 247,
  "\u00f8": 248,
  "\u00f9": 249,
  "\u00fa": 250,
  "\u00fb": 251,
  "\u00fc": 252,
  "\u00fd": 253,
  "\u00fe": 254,
  "\u00ff": 255,
  "e</w>": 256,
  "s</w>": 257,
  "th": 258,
  "t</w>": 259,
  "d</w>": 260,
  "in": 261,
  "r</w>": 262,
  "y</w>": 263,
  "an": 264,
  ".</w>": 265,
  "the</w>": 266,
  ",</w>": 267,
  "en": 268,
  "on": 269,
  "o</w>": 270,
  "er": 271,
  "is</w>": 272,
  "g</w>": 273,
  "ou": 274,
  "a</w>": 275,
  "al": 276,
  "ing</w>": 277,
  "f</w>": 278,
  "ar": 279,
  "re": 280,
  "and</w>": 281,
  "er</w>": 282,
  "or": 283,
  "of</w>": 284,
  "to</w>": 285,
  "ed</w>": 286,
  "'</w>": 287,
  "ti": 288,
  "at</w>": 289,
  "es</w>": 290,
  "ly</w>": 291,
  "il": 292,
  "m</w>": 293,
  "as</w>": 294,
  "on</w>": 295,
  "ch": 296,
  "in</w>": 297,
  "st": 298,
  "/</w>": 299,
  "l</w>": 300,
  "></w>": 301,
  "<</w>": 302,
  "br</w>": 303,
  "ac": 304,
  "it</w>": 305,
  "en</w>": 306,
  "st</w>": 307,
  "or</w>": 308,
  "at": 309,
  "li": 310,
  "om": 311,
  "ov": 312,
  "I</w>": 313,
  "an</w>": 314,
  "he</w>": 315,
  "wh": 316,
  "ow": 317,
  "that</w>": 318,
  "ri": 319,
  "be": 320,
  "se": 321,
  "-</w>": 322,
  "\"</w>": 323,
  "di": 324,
  "le</w>": 325,
  "th</w>": 326,
  "k</w>": 327,
  "ro": 328,
  "this</w>": 329,
  "ve</w>": 330,
  "ha": 331,
  "n</w>": 332,
  "wi": 333,
  "gh": 334,
  "le": 335,
  "si": 336,
  "se</w>": 337,
  "mov": 338,
  "sh": 339,
  "ma": 340,
  "movi": 341,
  "al</w>": 342,
  "ot</w>": 343,
  "fil": 344,
  "the": 345,
  "oo": 346,
  "ev": 347,
  "bu": 348,
  "ts</w>": 349,
  "was</w>": 350,
  "el": 351,
  "ch</w>": 352,
  "ab": 353,
  "The</w>": 354,
  "la": 355,
  "ere</w>": 356,
  "movie</w>": 357,
  "un": 358,
  "with</w>": 359,
  "ur": 360,
  "his</w>": 361,
  "you": 362,
  "for</w>": 363,
  "de": 364,
  "ic": 365,
  "ra": 366,
  "one</w>": 367,
  "film</w>": 368,
  "me</w>": 369,
  "out</w>": 370,
  "ke</w>": 371,
  "act": 372,
  "p</w>": 373,
  "ld</w>": 374,
  "it": 375,
  ")</w>": 376,
  "ow</w>": 377,
  "sc": 378,
  "(</w>": 379,
  "but</w>": 380,
  "com": 381,
  "are</w>": 382,
  "su": 383,
  "ce</w>": 384,
  "ally</w>": 385,
  "pe": 386,
  "ent</w>": 387,
  "you</w>": 388,
  "tion</w>": 389,
  "ca": 390,
  "be</w>": 391,
  "ers</w>": 392,
  "sa": 393,
  "ex": 394,
  "not</w>": 395,
  "all</w>": 396,
  "es": 397,
  "tt": 398,
  "ther</w>": 399,
  "ol": 400,
  "ir": 401,
  "have</w>": 402,
  "so</w>": 403,
  "po": 404,
  "em": 405,
  "wa": 406,
  "ta": 407,
  "som": 408,
  "ea": 409,
  "ge": 410,
  "ould</w>": 411,
  "op": 412,
  "!</w>": 413,
  "ore</w>": 414,
  "ver": 415,
  "ough": 416,
  "by</w>": 417,
  "vi": 418,
  "con": 419,
  "ust</w>": 420,
  "wor": 421,
  "am": 422,
  "per": 423,
  "de</w>": 424,
  "fu": 425,
  "ood</w>": 426,
  "ag": 427,
  "fe": 428,
  "is": 429,
  "who</w>": 430,
  "rom</w>": 431,
  "mo": 432,
  "like</w>": 433,
  "ds</w>": 434,
  "hi": 435,
  "as": 436,
  "tr": 437,
  "they</w>": 438,
  "from</w>": 439,
  "c</w>": 440,
  "thing</w>": 441,
  "to": 442,
  "ter": 443,
  "Th": 444,
  "qu": 445,
  "oun": 446,
  "for": 447,
  "pl": 448,
  "pre": 449,
  "w</w>": 450,
  "It</w>": 451,
  "do": 452,
  "her</w>": 453,
  "ne": 454,
  "ever</w>": 455,
  "ter</w>": 456,
  "char": 457,
  "ci": 458,
  "about</w>": 459,
  "ad": 460,
  "ct": 461,
  "mu": 462,
  "pro": 463,
  "just</w>": 464,
  "has</w>": 465,
  "man": 466,
  "?</w>": 467,
  "ad</w>": 468,
  "ough</w>": 469,
  "ing": 470,
  "ght</w>": 471,
  "stor": 472,
  "par": 473,
  "ell</w>": 474,
  "ir</w>": 475,
  "fa": 476,
  "king</w>": 477,
  "ous</w>": 478,
  "gu": 479,
  "ll</w>": 480,
  "This</w>": 481,
  "some</w>": 482,
  "bo": 483,
  "can</w>": 484,
  "wat": 485,
  "ely</w>": 486,
  "charact": 487,
  "more</w>": 488,
  "ent": 489,
  "good</w>": 490,
  "very</w>": 491,
  "ss</w>": 492,
  "sp": 493,
  "what</w>": 494,
  "up</w>": 495,
  "tion": 496,
  "lo": 497,
  "pla": 498,
  "cu": 499,
  "other</w>": 500,
  "ap": 501,
  "time</w>": 502,
  "fin": 503,
  "ys</w>": 504,
  "i</w>": 505,
  "able</w>": 506,
  "ure</w>": 507,
  "ks</w>": 508,
  "ear": 509,
  "there</w>": 510,
  "An": 511,
  "own</w>": 512,
  "way</w>": 513,
  "story</w>": 514,
  "ill</w>": 515,
  "my</w>": 516,
  "im": 517,
  "ate</w>": 518,
  "would</w>": 519,
  "ep": 520,
  "du": 521,
  "end</w>": 522,
  "get</w>": 523,
  "ack</w>": 524,
  "ge</w>": 525,
  "no": 526,
  "der": 527,
  "gre": 528,
  "ant</w>": 529,
  "of": 530,
  "scen": 531,
  "ru": 532,
  "ich</w>": 533,
  "au": 534,
  "when</w>": 535,
  "if</w>": 536,
  "0</w>": 537,
  "which</w>": 538,
  "even</w>": 539,
  "use</w>": 540,
  "man</w>": 541,
  "loo": 542,
  "most</w>": 543,
  "really</w>": 544,
  "see</w>": 545,
  "only</w>": 546,
  "no</w>": 547,
  "gi": 548,
  "their</w>": 549,
  "dy</w>": 550,
  "had</w>": 551,
  "she</w>": 552,
  "min": 553,
  "sh</w>": 554,
  "ong</w>": 555,
  "tw": 556,
  "el</w>": 557,
  "Wh": 558,
  "sti": 559,
  "ity</w>": 560,
  "were</w>": 561,
  "some": 562,
  "re</w>": 563,
  "ut</w>": 564,
  "kn": 565,
  "ding</w>": 566,
  "ful</w>": 567,
  "ck</w>": 568,
  "ms</w>": 569,
  "sed</w>": 570,
  "me": 571,
  "ence</w>": 572,
  "ob": 573,
  "ted</w>": 574,
  "pp": 575,
  "than</w>": 576,
  ":</w>": 577,
  "ying</w>": 578,
  "sel": 579,
  "ound</w>": 580,
  "lov": 581,
  "ay</w>": 582,
  "lea": 583,
  "mi": 584,
  "do</w>": 585,
  "much</w>": 586,
  "cause</w>": 587,
  "ting</w>": 588,
  "[PAD]": 589
}